BFFA36DD
3D96FD84
3E838C58
3FD3101B
3F5C4E50
BEC70367
BFC3D048
BF413807
3FBBEC35
3F8822F7
BF592180
BF996267
3F625E66
3D863598
BDFDC5AD
3E8D6596
3DC559F4
BE93E1EE
BE7DFE2A
BECC18F3
3EC0CBF2
4004E103
BF777C2B
BF8AAD15
3F8A7185
3CA14952
BF09D290
BD475A86
BE5F0D02
3E570C51
3F802D7A
BF72F7C4
BF6979F5
BF874A6F
BF157FEA
BD69B353
3F25A2C5
BF643F11
3DF79F13
BFB9CC6B
BE9372F7
3FA24645
BE9E804A
BDBE05D9
BEC624DE
BF2D5DAA
3D86EAF1
3F4EA61E
3EEB024E
3FB45DBA
BF4F37E8
BF42B78C
400BC51D
3F3AF616
BF8C0697
3F3D204E
3F6ADDF8
C000E41C
BDA75B72
BF2399A2
BE096DCF
BD790B01
BE369BA3
BED37883
3E8C9A0F
BF4AD5A0
3DEC2AC6
3F5DF0DF
BF1E35D5
BE6CDD45
BE3BA5A9
BFA6970A
3FA901DD
BE8FF57B
BEBC35E2
3FFAFADE
BF0369C4
BD4B6520
BFA224A1
3FC0D979
3FA963A0
3EABBF02
BF925FE5
BF733E7B
BF729629
3EDDEFC0
3E9B2033
BD431258
3F9D2817
3F210840
3FCB8C9C
BE4AB9FF
3F0C1F00
BEEA52FD
BFEDD188
3F85DD5C
BEDA9D2E
BFB5D4F1
BE37A2E1
3F89AB98
3F037AE8
BF454F0D
3E93DDA2
C012EA22
BF9724D1
BDC5003D
BF9475BF
BF6F5722
BF820A5E
3EF2E42E
3F5BC52A
BF8AE1D4
3F7CC631
3FC6B1CF
BE14CC64
BE9CBC1F
3F473860
BC189531
BF488407
3F0B5D11
3FB23371
3F404221
BE2D16EC
BCB54D04
3FA9ECA1
3F9A87F6
3F3E92C8
BF18792F
3FB294E1
BF267DDF
3E8E9881
3DD24B27
3E9FDD2F
3E3314F0
3F14B887
BFBF5594
BFE25C67
3DE047F4
BF886F7A
BF60133C
3F206EE1
BF9347BC
3E6C1CD9
BFAD5E8C
3F1CF23B
3F9DBD65
BF9CA557
BF02BCC5
3F5BCD99
3ED0391F
BFA584B3
3E41726E
3FB092C2
BF74DC36
3CFFF318
3F1A3D96
3F45650E
BD686381
BE655AE7
3DF4AF4E
3FB2D319
BF8DA8CB
3F31F9AA
3E7A9317
3E53ECCC
3F51CA01
BEA88E6D
BF796E4F
BF9B9947
BF1FF875
BFEC3B4D
BE5EADB3
3ED700F8
BF2E70FF
3F103E46
BFA7B810
3FA8E6F1
3F33FEDD
BFB799C1
BF2C9D2F
3F96FF6F
3F283514
BF3C73A0
3E9E3067
3FBD497D
BE96D902
3EB8B4F3
3EF9629C
3F423E3D
3F3A01BC
BEC50A18
3E79AB7A
3F4FE4B4
BEE8F432
40077AE3
3B6EE268
3F0ACC55
3F251F14
3D8CA079
BEA1A8EC
BF79438F
BFA7EE14
BFC20ABC
3EDCD6ED
3FC259C3
BF025BE9
400B6EA5
3F0FBE2E
3E1A1D6A
BEAE8AFD
3ECF2935
BE967C2C
3EAACC04
BF94B184
BF8D8A22
3F2CC6A0
3CF0FDEF
BF0C7221
3F44D0D3
3F096912
3E4D0D7F
BFEAF30F
3CC7801E
BF228071
3EF7DF6B
BE6EFFC5
3FB042E4
BF0B30B8
3F40E05B
BEF3906F
BE482BBA
BF824E40
BFA2C6C4
BFC76F25
C002FC9B
BF9EEEFE
3EE945DA
BFB465CB
400F3D23
BC01642C
3F35D611
BE37A7EF
3F3487FA
3EEDD50F
BF489D22
C03B41DF
BF8D0B8C
3F649E6F
3E0EB698
BF2693A7
3F953913
3F10DCDD
3FADDC9E
BFF8AF23
3CDEBC9E
3F05172C
3E149BB2
3EB97140
BE5FB8EF
3D158AD2
BE6F5C51
BF4CBFD2
3D86C92E
BF3C8A9E
3EE1F331
BF6B5FA7
BFE61665
C015D77C
BF1B0F58
3F535D3B
400CE98D
3E61065D
3F732439
3F07BE41
3E3E92A1
3E54AAB4
BF5A6A69
C0812935
3DC710FC
3FAF2422
3E295046
3F970B71
3F03E07B
3F4C514A
3F92C1F9
3E965D8F
3E90F965
BF664F3E
3F634152
3FE85D2A
BC397D72
3F554476
BF7F0332
BF8AAFD5
BFEDC1FD
3F69AF12
3EF894ED
C051E859
BF9244AB
3E376676
BFD40198
3FB37231
401CB902
3F26D23E
3F73EB73
3F2FA060
C03FCD39
BF0E9F39
BEB83118
3F809FF0
3F88F569
3F8EC2CF
BF8612CC
402ADD31
BEEE2B22
403AE3C0
BF4F55C3
BF193CC7
BF6CC5A9
BF73BA80
BFCC3A15
3F241925
3ECACBEE
3F48A4B3
B99C3A94
BEEFB7F2
BF786534
3F428C20
3E973B7E
3FB9F844
BD8695ED
BF6A7163
3FBFFD8C
BE0B4819
3ED5E167
BEC5D72D
3F22157F
BF076AB5
3F934A7F
BF238D31
3FC68ED2
400502F6
BF9D21D3
BF1E84B4
3F275744
BEE5E6C0
BF306864
3EA4BB27
BEB67470
3F9203CB
3F9D9938
3D254DDD
BD5FD2C2
3FDC8C17
3EC4C5E5
3F9476CC
BFC8AE0A
3F818B8D
BFE9BE70
3FB4AB88
3FAC8EAC
BF900441
BF3DC855
3F050A49
3F7138DA
BF99AE58
BF1269C5
3F37CEE4
3F93A11B
BEC4E1D1
BE808DFA
BFE4473F
BE731725
400E233C
3D07795A
3E30B733
BE530E5F
3EA89709
3E4F3B7A
3E136EE4
BE88425C
BEAA3C02
BFA1C409
BC3CC9B8
BE983B30
3ED50CFD
3FCD7E43
3EE19570
3F2512D3
3E7040FA
3E512D24
BE8EE35D
BCBEE437
BF3B2AB3
BE9F6C1F
BF35AC5D
3F5E6B35
BE30CEAE
BF62D2BD
BE578EFC
3F828EDA
3E347998
BF84C2AF
BF8F0F51
3F7D9E50
3F61FAD3
BE3DAEB5
3E6221F6
BF1FEB63
3E3F44A9
3F85D9BE
BE6E7221
BE432612
BE81D103
BE99D31B
BF896153
3EC318B7
3D6AD7E2
3F672229
3FB868D4
BED23DBF
BEC83C9E
3D7CAB8C
3DF8DDA2
3C477405
BDF5EFAE
BF8FDC04
BF024F96
BDF1BBC9
BF4F6BF6
BF693BEC
BF073643
3FA8B5CA
3F34CCFA
BF09ADAF
BF04B2A1
3EE688F3
3E52FC22
BF4D70EC
BE873BDB
3DFB65DD
BE8E453B
3EA5A032
BEEC306F
3EA9C679
3DB0BA6E
BEDFC2C0
BF77665B
3F4765D2
BF0CE68A
3DB59787
3F6AE0F0
3E0DA9BF
BEB316F7
BEB754C2
BBD529AC
3E9797D9
3F047348
BE68B5BD
BF6B47FD
BE395F62
BE915CED
BEF324B7
BF1C6019
3EEDE73D
3F02E641
3D593BA7
BE47AA6A
BEAE229A
3EDB981B
3DEFB38D
3ECB8168
3EE41503
3F75B3D5
3F8C57B6
3DE36CAE
BEDCD2F5
BE4ABB6C
BCDD017D
BE532FBE
3F388959
3E21DBF3
BDB40198
3EF2A2CB
3CFE56D4
BE518F6F
3E94101B
3E6F9078
BD57AFEF
3F3DE8AB
3E5E426C
BE33FCCE
3EFB0EE4
BE0A845C
3D62DA68
BE3BE96B
3E913348
3D31D7A6
BE75D1B7
3EA5FF5C
BE175A6D
BDC3B9AD
3E17BBF5
3F0D1D90
BE0DA113
3F40D5C1
3F462F73
3ED5962E
BEA0B528
BE2DBB5C
3D849E2D
3D73FF47
BEBFA797
3F0462E6
BEF93062
3EEA3501
BF2C68CD
BE2D8A3D
3ED8FC9F
BDCA361B
BA83A264
3DD1BED9
BEEB2420
BF492EA3
3EF43860
BEAEA829
3F10DEF4
3CEC8344
BE519D11
3E77900B
3E168422
BEB31208
3EA55125
BF22D4F5
BD865EB4
3F649A88
3F32FAC7
BE0F7DAA
3EC70416
3F207775
BE206FF2
3DAA7217
BEB364A1
BDF0FEF6
3F2B99F4
3EBE0876
3D6B2288
BDFFA5BC
BD547C7F
3ED8C149
3F52E6AD
BE3CC009
BDF00BBE
BE2B7177
BD2CE330
BFA535A3
BE64A9D5
BDC84FE3
3F543EA4
BEA9C135
BEB6B4FC
3EFC6AD5
3E866B5F
BF5E9C6E
3CDE56B7
BF7758EA
BE6AB8C4
3F0ADA0D
BD9667B5
3D949C0B
3E8238F1
3F57C66F
3F04A5A4
BE8D8D1B
BF01F1AA
BF59E5E9
BF502030
3F5D5E20
3C0CEB5F
BE0545AF
BDFF3DCF
BE8F2B60
3EE46A92
BF0C10D3
3EF7B2AF
BF30B119
BEA1D0D7
BF27E9B1
BEDF7475
BEF7041F
3F846013
3FC4F856
BE68CBFA
3D9B286E
3EB5866D
BF15DE98
3EF56202
BF4F1FA8
3CDBB176
BD9EDC99
3D079BA4
3D76E569
BF103678
3E9FCE7A
3EDA8909
BF884C44
3EBC872D
3D598C17
BF644B4B
3FAFB51E
BF8141D9
3EECB611
3F28F1EF
C0045D1E
BDC4365C
3D35FEE2
3F09DA45
BF9F5676
BF9119FC
BF0C52FD
BF4B819C
401F7606
BED230D0
40095589
3F07BF0F
3F89D104
BF881228
BF0CB294
4018D7E8
BF48518A
3F8BD997
BF5AA0CD
3E9FF882
3E66C417
BF9EC824
3D64E45C
BF338800
BFBAB785
3F4D9336
BF45B2FF
BEEEF181
3ECFD406
3FC32FEE
3D95D0E5
3EA29067
3D926C0C
BF3F1412
3C2D7FE2
3F6AC994
BF3DABD3
3F7029DD
3E9CDE8E
3F4B24F5
BEDFD86C
3F9EA06E
BEC6812C
3FC7DE8A
3E9FE026
BD052212
BF142E09
4039DC31
3E391743
3E870FE6
BEA13A96
BF8F3A2A
BD5532E7
C01D1F5D
3DCC1BEF
3F0B8B7D
3F13741A
BEB8A0DF
3F97CC13
BF443B8D
3F5D65A8
3F111B27
3EEFBA82
3EACEE43
3EF11990
BDDB7369
BDEF344C
3E492390
BE8AA25F
BE5B58F3
3D39F7B9
3FA138C1
BF56759A
3EB21642
3F0E5DCE
3FB3EFFB
3EDE6276
3E229344
BF681E17
BEFB163D
3F41F39F
3E3ADE82
BE84607A
3E6FDCAD
BF0D4090
BF16DEFF
3E8C3F6C
BEE20FCA
BDF400EC
BDBA94C2
BE801861
3ECE8829
3E45391B
3F14F9C2
3E33D0C6
3F46DB4A
3DC1B986
BD7F0A46
BE56190F
3B62CF06
BE33E78A
BEE982B3
BD0E72A9
BF0C8FBD
3DE54DDB
BDB76170
BC927C1B
3D83D9EF
3BD15260
BFA53A39
3DC8E01F
BD448959
BCB708A1
BD981BB5
3E674925
BE8B014D
BE61E646
BDBA3B53
BEF9ED12
BE398256
3DF73A38
3E9CA16D
BF8660A2
3EC33965
BE93B350
3D98BE39
3DDE1637
3F31A22F
3EF6C702
BE8183C3
BEA190E7
3DA37C1B
BEC248DF
BF24020E
BEBFBC8A
BEE962CE
BC3BFEE6
BE341E5D
3D925208
BEDB1141
3ED3E09E
BF800B35
BE842B60
3DF95E69
3E65D9BB
3E7D664B
BDFA1FC3
3DF190F4
BE117FD2
BF64F141
BDF6DC3C
3E7FE7AC
3EC77F9A
3D57B0DD
BF1E5F67
3EEB2A4C
BEEE15C9
BC904081
3DAD8111
3F2F06BA
3F0C69F3
3DEF9B48
BE0A9812
3EA68A48
BDB68DDE
BE2F077E
BF048F31
BEB6EE5A
BE4EFB29
3DE4F6C9
BE0787B0
BF3C5020
3F39C5C1
BDCB1D9D
BDACD3AB
3E90D536
3DC32B5D
3EF4C05E
3E10E630
3E734CD2
3F805D7C
3D840856
3C90432A
3E0C1D6C
3ED60672
3E0A0276
3F030201
BEABD99F
3D679D96
BDF4DFCC
BD218F48
3DFA022D
3F03968B
BE52A1AF
BE08C31C
3DFECA33
3E515F07
BE9D2D64
BF49377F
BDCC21B2
3E0C9AF0
BE1EA338
BF2C1A70
BE9E02BD
3E78EA54
BEB36A33
3E839DB1
BEF893B4
3EDB90F0
3F6940EE
3ECAA92F
3EC4893C
3F0B5CD7
3F5A0E74
3DFFEEA4
3D6DA0A0
BE6E6D01
BE7D4305
3F158E68
3E316EA1
3E5DBF8B
3EBEB9F0
BDCF019F
3D642FF0
BDA199BB
3E8DE02C
3E30A3A0
3E3EC9FD
3E9692EE
BD6B4FEE
BD14941F
3F2B22A6
3EB78296
3E99B08C
BE990622
BF0E8A56
BCC1DEB5
BE1E97A5
BCD217F6
3BCA739E
BF034533
3E941F29
BB3A4DAC
3E81F3CB
3E0AE6B5
3F901A58
3E846799
BDCABDDD
BEA8DC71
BD35DB1E
BF316614
3E3015C8
3E933B1B
3F08C9A2
BDE0D959
BE8E7D71
3EA37AC2
3F509790
3D995F8C
3DC9667A
BE3C2070
BE8CCF87
3E392DEF
BE26BFF8
3CFE00CF
3F394FC4
3E466C93
BF4BEDF5
3F18E96E
3E878704
BEBAA3D8
BDDC3FB8
BF504A6C
3BAD8B2C
BE550BD1
BE6F5251
3C448FA1
3ED9A85C
BE4D6852
3EB2610E
BE4F1779
BEFD2BFE
BF0AB394
3E69B659
3F1B5234
BD7A286D
3EAB7944
3E4F938B
3F2B4F77
3F05C9B8
BC850D9F
BDE02C8B
BF01E02E
BE8EC181
BC2ECFFE
BD70873F
BD8212CF
3F326F8A
3E8F3CCE
BEF2471B
3EFBCC81
3E2621D6
BEB4104D
BEF39456
3F1D07E8
3E10F959
BB592168
BE9A6BB2
BF170027
3E22CF61
BECE3D4D
3E8D50EB
BF2D5F7C
BDD5A435
3E8059F2
3E82B258
3F8488D7
BF3559CA
3F0264B0
BEAE227D
C094038D
C027E7E0
BE86056E
BF149E39
C019152D
BF59CDE7
BFA1DDD9
BF7B4F89
BE9E7A8E
3DB63169
BEF44C0D
3F4302D0
3EA8B631
BFD37AD5
BDF477CB
3F7C601F
3E48C6C8
3F2CD5FB
3F92096C
3DF5F39E
3F56BEB8
3DA637B8
3F81DE12
3DA48049
BEEB9BB7
3E02B353
BE8BCFB8
C0626E61
3DBF84F0
3E8E5B3F
3FBE38F3
BF8DB422
3FA1264C
BF65754D
3F00636D
BA1DF561
3F1C84BA
4003B900
3F92C115
405588D5
401C0E93
BE28BC83
3FB9ACEF
3DC72CA2
3F11055A
3ECCC91E
BF6A4B9E
3F84CD62
401875F9
3E9874F9
BF8DE35A
3FA27DA6
3F03FDFE
BDC887AA
3F8952C3
C08B8CC7
3E853605
BF862382
BF517ED8
BF20514B
3ED2FDC6
3E161ECA
3E294F78
3F88D922
BE4FD19A
BF462760
BDC1830F
BE42FEC7
BE0D8D93
BFE13E2F
3E8F582A
3F3BD66D
3EBD792D
BE26EF74
3ECC1615
BDF60F87
BD996EB7
3EB912F9
BD44A408
BEC04F40
BE985593
3E23CE8A
BEAD20F7
3F5F22A1
BEAC0BD9
BE5F19D7
BED5286E
BF1A8FBE
3F31305A
3E46A287
BE38C46E
BF061C8B
3E0AF31D
3D98565C
3E980396
3F20B4AD
3EB808FB
BE80F3CC
3E0E796B
3E0A81F3
BF38B67A
BECC52AC
BBB97177
3F12658D
BEBB1DF3
BE895B35
3E0FA130
BE8500DE
BEF8C8E0
BEE360D4
3DAB245E
BF2AEB1A
BF10EDDB
3F16851F
3E8217D7
3E337734
BEBE86A1
BD6E8FAE
BDA4228C
BE3AE23F
3DF916B6
BE7EBC16
3D687794
3EE8A766
BE8AB4C7
3E2899B0
BDF1BA4C
BD941944
3E21AE3F
BE7DC17E
BEC2D615
BD6C1B7F
BE7D537B
BCF5E241
BCBB9E6C
3E8D3999
3D2F6D45
BD651512
3E0B194A
BEB78D31
BE6207CE
BF51B921
3E272BD1
BF0D4314
BE7FEACA
3EAF6D3A
3DAFE3C7
BE8FC2DC
BEFBD282
BE757479
BEA3EFCE
3D80968A
3E277441
BEA03AED
BF0985A2
3F58F6FB
BE47FD17
3F0644E4
3D7B6417
3F37CF1E
BF203C0C
BBDA3632
3E24EABE
BCA9CB17
BE2634F9
BE9A783F
3E709557
BF086F0F
3DA74D69
BE99E518
3F28D8CE
BF02548D
3E735E6E
3F1E91C1
3E77D3ED
BE1C7F2F
3EE56EBC
3EF75824
BE6E6D0A
BBAE6C90
3F67974E
BEE53061
3EA442D9
BE234E2F
3ED11DAE
3E3BB4D4
3ED32FC5
BF5B243F
3EC73684
BDDE14F8
BD10DB0F
3EC0C722
BE0F9B26
BF556B09
3EE6600D
BDA85EA6
3DD82877
3E1C1230
3F116C37
3F0776CB
BE49661E
3CAE5257
BD4F797E
BE46F10E
3D82C81D
3E3C22A8
3F10B200
BC1456A0
3F391C17
3ED7016D
3E9B06E7
BDF16002
BEF70133
3E62A8BF
BE156DBA
3DA0CEB0
3E9CD803
BE658077
3E1E115F
BE9DA2BC
BDB285D0
3E7CCA33
3E2AC321
3F2CEC4D
3DCF9A5E
3DC6C45C
3F24C57C
BDED404A
3EEDC2D9
3F2BF3E8
BD57A49C
3ECD07DB
BE8FCBC7
3D206135
3E2C0569
BEB39D6E
3E44BE1C
3AA07266
3EA92240
3DA4533B
BF4A97AD
3C1DF37F
BD26247C
BC130DF7
BEF2B8A5
3CB71010
BEBCE4E8
BED5E670
3EB92B67
3F077936
BF13B822
BE3072C7
BE9861A5
3F3D0FDC
BCE44C6A
3ECFFE9A
3DF52805
3FAD721B
3E109402
BDB3EA56
BDE1E786
3F3801A2
3DE9BB8C
BF52018E
BD490454
3F5C2E4D
3DF19902
BE0031AA
BEA3A6CA
BEB602CF
BE12F3E5
3D193265
BFF9A68B
BEB32DB4
BF06CD89
BE714504
3ECBA174
3E965826
BD8A7CEE
BD6F5563
3EA35E58
3EE67B3E
3EE4506E
BE5A096E
BCB9807B
3F0B6FB6
BF218A31
3DD17078
3E9CC4DE
3DE2A5A6
BDF2B649
BD8343C9
BF47CA87
3EF7CE0F
BE3998F3
BF5815C1
BF92EE66
3F48B995
3CF1E642
BF3A1202
BE75D012
BF497FFE
BE811FBC
BD642CF5
3F94EEA5
3F17D095
BE26CDFC
BF084303
BE7C6E01
3E6E3DEF
BF336259
3C1A2875
3E924BB2
BEF799F0
3C51AA8A
3E67E97B
3E191EB8
3F0EA115
BF80D703
BF0DBCB1
C04BF0CF
BF9BC82B
BE601929
BE2CA4F9
BF78D0F6
3F6FDABE
BF3B28D1
BEC51F05
BF9AF21D
3F3AF88A
BCDA4992
3DB08F1F
BE664632
BE816A82
BE0A24DC
3F1FDAC6
3FA8369B
3F81791B
BECC262C
BF9DBB26
3EF9F8F1
BFD249A5
BFB60CA8
3EECA830
BF5C6F9E
BF5AA832
BF1693C4
C053146D
3EBC0B57
3F6D3C39
3FDC426C
3E6D3AF3
BD8B8E6D
3DCC64E3
BDA0D798
BF409B22
3F7F41DA
3F558D8A
3E7402A2
3F8131BA
403D581F
BEB35CC3
3F6B48E3
3E670C50
BF206AC4
3F617644
3FA11C3A
3F80237D
4003EF76
3E3B4965
BF97469E
3FA61CAB
BECDDC51
BFB107E9
BF419D55
BFAF639D
3DAE280B
3EDF9679
3EBB0E52
3E2F5729
3E408716
3E895DD5
BFD4351A
3E9AFFE3
BFFF1A24
BC7F6FB6
3E3F4D99
BE0BED3D
3D5E205A
BD132786
3E92220A
BE4F37D4
BE417365
BE7C3013
3EA2685C
BDB69CAA
BEAAA1B5
BF06CF33
3E4F0AB1
BE76E33B
3F168771
3E8334D0
BEBA46F5
3F54201B
BCBFF932
BEE9BFB7
3E7636E6
BD4CACCA
BEA8A4B3
BEBF90A3
BF1FAE9B
BDAAEF70
3DB9F2FC
BEC759EF
BF6AF95E
BEF0819F
BFCE932E
BE14ECA6
3E3C2FDD
BDABD82F
3C6A39AA
BDCE5FD9
BC80A766
BF0C8BE9
BF056D04
3E8B62AC
3F3D61C0
BC3D08CA
BEF1D52B
BED6C8E3
3EBA19BE
BE7F48E3
BD1D1348
3EE89BDC
3E87A64C
BD87088D
BEE93FEB
BEE443A1
BE884B5F
3E2D9CB7
3D1946D8
3C320DF0
BD8614B3
3C8AE8A3
3DADEC35
3F0F8B6E
3D555088
BEA58E4F
BFAE390D
3DCAA8D4
3D8EF584
BDBB8412
BCD9D553
3E8B77D4
3DFE2C9B
BED669F0
BE2F9F06
3EC0AD0D
3E67336A
3E861C4E
BE7174A4
3C9FC036
3E155730
3D885B4C
3DFD33C1
3E95A57B
BE805592
BE3423B6
BDD14CC7
BE18EB32
BEA7BD57
3EA48C3C
3D8FF143
3E8A1ED3
3D0142E7
BE592531
3EDA7C69
3E203505
3F5C0607
3EB16ED3
BF35B729
3E1F4727
3ECD8CDC
3E8AB14E
3E52114A
3EE5F590
3E7B8963
BC13AB06
BD6E59AF
3EF3F7E9
BF553493
3EA6621E
3F27A545
3FB2899F
3E897178
3F4D59A1
BAE52075
3F11961D
3EB6852C
BEE61342
3ED36AB7
BE0E6691
3F672F91
3E236C81
BF7E1634
3E10C5A6
3CA3CD0A
BE4852E9
BE8DBEF9
3EDA28F4
3F0C70EC
BE9E14E1
3EA21175
BF1A79ED
3EA65D97
3E3880ED
BF59A786
BE1C6B47
3EF398E8
3F282D95
BCB1477F
3E899CA2
BEE5D17B
3F22C145
BED310D9
3E540FF2
3F2AB2B8
B914272D
3E51C297
BB21282F
3EE06ACB
3ED03021
3ECA34A8
BEB4FC49
BC876239
3F1348D1
3DA1E894
3ECCCAFD
BCAF6E8A
3CD9C3D8
BE95B0FF
3EB6B2A5
3D181FF2
3F0A1D39
BD9F6D57
BF03FD4D
3EE0B4BD
BD77D536
3E8FCFC3
BEC10ADA
3D9F3F47
BF044F8B
3DA5F805
BEAD5BFB
BCEE04DB
3EB86A20
BEABDF44
3E0C5B05
3F0EF2F2
BD945C8E
BF1E2CC1
BD919E78
BE583D55
3EC2F940
3E148ED1
3E7FEE3E
BCF469CE
BDA4F8CC
3E44C209
3F4302D2
BED22624
3D2AA44D
BF2C84F6
3E953054
BF56534D
BDCED162
3D04A797
3EDA245E
3E21A086
BE89E3F3
BEAB95F4
3DE43E3C
3DDED756
BDEDFF07
BF1CA717
3ECFD8EF
3C73B4BB
3F028460
BE675630
3F3F48D9
3EE02021
BE479A35
BF573BED
3DC06C46
BE442031
3E7F6F6A
3D6CA4A8
3EDCF5AF
BE7B94FE
BF073B50
3EAD8F75
3F652ABB
BDDB4C26
3EDAA216
C00820DA
3DAB89B7
BF1D3376
3EB31243
BED6171E
3E8C31E0
BFA7EC35
3F3A2C7A
3D4EB505
3ED258A4
3CBFB4A8
3C20E322
BF3DE23E
3E942E63
BEB8BA9E
3F291AD0
3ED22CEE
BF00C72C
3DC64FFE
BF1003B5
3F410FD1
BF14C049
3E65CA57
3F1FB97F
BE7E4EF6
BDBB323F
BF89F433
3EC11904
3F51720B
BE9FFC74
BDA6334E
3E259DCA
BF926DFB
3D85898F
BFB63EF8
BF86E4ED
BEA3999F
BF7063B5
BCD6C620
BF166503
BF8D1DD0
3FEDB035
3E37CC65
3FB61A34
3C1D64A5
3F67232C
3D0E4E0B
BE15C708
3F88B46A
C012FB27
BE0A779E
3FB74A2B
3EB8D963
3F91683D
BEB24FBC
BEC4CEB8
3EE18EE0
C0411108
BFF51183
3CA13F78
BFDD123F
BFA6CEAD
BE8E1271
BFCD7D6D
3FACBFC9
BE4DD6F1
401368B3
C006442C
3FBFB2E9
BF9D5243
3FA4DD04
3E225211
3F183843
3F394828
BD2D0A73
40009B22
3FE637A4
BEBB69E4
3F967807
3E7D271E
3F3F6526
BF00FED7
BF70D81A
40159861
3D237D4A
3F69B5D3
BF9FA5F1
3EBEC9BA
BDEA9E67
BF996356
3F95310D
C02B00FA
3DBA1135
BF4B7786
3EA31D9B
3EEF5371
3ED47ECF
BD932CC6
BE361442
BED04FE3
3E3196D6
3EAE181E
3DB504AA
3EDE23DC
3EF011F2
BDADB0E0
3F0552F2
BF6D4AB7
3DE9DCE9
3F501FCE
BFD128BA
3EEA8B85
BE23DA74
3E05955E
3E1343B6
3DD0C3D3
BDC9A67C
BDE27895
3E36AA95
3E1604FC
BF277566
BE49D5FA
BE707033
BF4FA964
3ED6129C
BF3D0513
BF052A08
3E25148F
BDF39A77
3EDDBAD8
BF4E2B59
3EDE76D8
3EAF6EFF
3F1BBC08
BDB198D9
BD2584FB
BEBC5A9D
3E7A845F
3E27A438
BEEBB4BD
3E3693EB
3EBE1F42
BFD1B586
3EAED897
3E1F50E2
BEB39189
3E708950
3F1EFCA2
3E2556CF
BE21A329
BCC09186
3D3B31ED
BEDEA149
BDDF2771
BD3F01C0
3EFCA592
3DD555F0
BE998D5B
BE11EE0B
BD84E81F
BE6C1798
3F077D6B
BFB4DCEF
3F1E4CCB
3EBD9FFF
BDAB2D15
BEA21790
3F695897
3D126C58
3E672F45
BC32FF85
BE3E4546
3E375C35
3F38A6C1
BFADFC01
BE89149F
3F1D7A46
3E44BC27
3D50E061
3EFF6575
3E37DE3B
BE611F1E
BDC937F1
3E947BD4
3E821BA1
3DB7024A
BD4A11CE
3EF8F27F
BE7E5482
BDA81864
3D060ABD
BE0EBC85
BE07AA9D
BE527551
BECDF92A
BE3B6A9C
3F206DD8
BDCBC0E2
BF136340
3F50C312
BE385A61
3D8878D3
3DF0FABB
3F1CF415
3DC8DE64
3F64178C
BD827F6E
3EA1DD61
3F490725
3EDAF435
3F22B0FC
3EBC5D97
BE5B6394
3E9F6E09
3F41B2B6
3F2BF12E
3E18AEC9
BE0DFBEF
3F5686BF
3EAC75DB
BC06E7E3
3F03C05A
3DEEA829
BE2096B2
BE8FBAC7
3E8A4729
3EABDD07
3A38185A
3E0AFED8
BEEB41E5
BEA93310
3E2E83F0
BF4A8EB7
BE17F745
3E8AD8A1
3E9D2423
3DDDAE48
3E5B92AE
3E9B183B
3ED33519
BEA71B17
3E44F077
3F125EA5
3ECF6C96
BE28C7D9
3E235A70
BE9ECB8F
3F7DB5C5
3F2FE4B9
BEEEA91C
BD5E7DB8
3F28642E
3C1C12CC
3EB8F5A2
BE5892B3
3C6D1983
3E8EDA7D
3D6197DB
BEA3B16D
3E172190
3DC3E0E0
BDCBF6AD
3E44530D
3BEE6B6A
BE5ED5A4
BF200A08
3F0619CE
3DEFF4C2
3EE80CFC
3DEA1BA5
BE82E02E
3E84FFCA
3E2AC2E2
3DDD807C
3EF907BA
3ED63CFF
BE83D27C
3EC937E0
3D5974CB
3E3A3F69
3EB7D126
BE41C482
3E67F8D2
3F1456B2
BEC24B74
3F56C494
BE205749
3DEC1318
3F3EBCFD
BEFDAE2F
3E88EDF2
3F1D9B21
BD97A9D3
3F04E3C4
3EB6372B
3AB78DC8
BF186EA0
BEF5D8EE
BDB80A83
3E9A2252
3DEAFB91
BEE18E72
BD91D243
3F02FD1E
BD4FFC1A
BEEDF516
BD8F7701
3E767963
3E2F15A1
BDFD8374
3F094D88
3F161B78
3D90AB83
3D554170
BE9A3299
3E4BE78A
3F224991
BDE34F2B
3D32AC5F
3F29AFCB
3E9C852E
3E1F4758
3EA94812
3F35998E
BDC69BA7
BEB0FD10
3F2A0147
3E428C83
3C38E644
BDCCEE19
BE68058E
3E9C78FF
3E5A6A64
3D689F26
3E55D385
3D99E775
3F43946C
BF1FED99
BDD5ACBD
3F2F2BF1
3E7A722D
BE411A15
3F0773C4
BE366469
3E9E41B3
BE740454
BDC66318
BED77B6A
3F9CA889
3E5E79F9
BE33B21F
BD8C2477
BF1C44FE
BF62FC0F
3F8D8CDA
BE86287C
BF20416C
BFAC81CA
BF15E08E
C02A8994
3EA86980
BE32BA24
3E82AA20
3D7EBF11
3F857F8F
BE179023
BF91EE33
3F247CC1
3FD8BB7A
BF9A629B
BE9166CF
3F83C4F3
BEB6C919
3EC131DD
3FA94C6F
3FD138B1
BF58FAFF
BFA4304A
3F4FB6C3
BEDCB4FA
BF5DBC0B
BE5EA922
3F915068
3F72FDA0
3F52EFAE
BF4CCBEF
3FD16A63
C031EE8B
3FBB5EAE
BEC44476
3FFC0EC8
3FD30AFA
3D99757F
3FA386B6
BF120AB2
BF7C5E1A
BF0EA654
3F9090EB
BFAF39CB
BFD73ECA
BFC6D40E
BF6186CE
3F02CCFE
3FCCD0D9
BDC74C1A
40443AE4
BF735515
BFD6BAE4
3EC24823
C01DF5B9
3E9720F9
BFAA3E67
BE5F2690
BF2E9499
BDA3575D
BECDF959
3E4DDF25
3EA84569
3EAE93A1
3D1A0A7C
3E955768
3E2E9DD7
3F12A77C
BFB9EAEC
3F16582A
BEBCF8CF
3EBA3A15
BFB60BEE
3F93CC9E
3EDC8453
BF08AE2E
3F043A6C
3F458569
3F1AD673
BE28580E
3D8A7ECE
3F1E4901
BEA0FE05
3E912A7E
BEBCFCD1
3E55DDF4
BF3E64B7
3F337D4F
BE1B5B46
3E24E07B
3D1D3257
3E4E864E
BED0D398
3E988C10
BEBCB6CC
3E49456D
3E01E1ED
3F51564F
3E6EE92A
BE417FDE
BFED446D
3D8A6E29
BDE78ED3
3D65F067
BE290CC7
3F6F24AF
3F5DA050
BDD32240
3E0933E8
3E6F8A21
BF0422EC
BE0AFA45
3EB24A13
3E8970F5
BEA0C50B
3EA87D6D
BE4AD367
3CEF1517
3EB68886
BDB56E25
3E70E5B1
3E774B0D
3DA16427
3F0998DF
3B2369C1
3E50157F
3E7D0B69
3D502425
3E94462C
3D33159E
3E9944F9
BEEA7796
BFC844B3
3F1866A6
BE08A2E7
3E91C05D
3F17F9FB
3F8DD623
3EA961A2
3EAFB3A0
BEA76553
3F26E11F
BE834389
BE64000A
BDB9BD9C
3D814137
BEA4EF56
3F345106
BDB77C5E
3F1AB79E
3E1612E6
BE04E1B7
3E0E2386
3F38BAFA
BE0158B1
3EC2E37A
BF216888
BF0BDDE8
3E8ADD7F
BF90E357
3ED371E6
3E3FF3FA
BEC4EDC0
BE01B6F0
BF2B51B2
BE22B39F
3ED5CFD1
BE64BEAB
3EB275EC
3F46D457
3E8C38F1
3F4D9668
3E44DAAC
3EB79A5C
3EE225B5
3E5BD260
BDC88400
BD9E3878
BEB2E357
3E7633EF
3EA3670D
3DC84929
BE1DF501
3D0865B8
3C89F4EB
3F00F212
3EBC76F3
3E14A3B1
3E20212E
3E20F686
3E8A6745
BE0933AE
3EBA0EEF
BD7F5551
3DDAA822
3E9CD709
BE859B79
3C97CA8E
BD818592
3F3A7BA8
BE5665A1
3F25CC96
3EBBC0AF
3EE047A1
3EFD501A
BDC56CA0
BE6BCF58
3D9A8F22
3EFA4CDA
3DB4A79B
3E86C9AB
3CEAA97F
3EC628C7
3F034CCA
BEDE48AC
BE94D830
3EC5A6F4
BF5A7ACE
3ED7A282
3E826D67
BE400F33
3F40EF84
3EA1F97F
3ED9771C
3D507289
BD0890F3
3E8F58F7
3D0DDFE0
BE32C38F
3E90A5B2
3E3D9B36
3EF254ED
BE5F28FE
3DD74C5E
3DF57DD0
3DA53D33
3F130349
BD85F9DA
BE74087D
BD4038F8
3F08E7F5
3DCF90DC
3E3C02FE
3EA8495C
3D249BFF
3F102560
3E81371F
3D0D8FE2
3E2D0540
3EAE4A73
3C3DD4D1
3EA98F8A
3D629CE8
3E4E80A7
3F180746
3E8C026A
3EB549AB
BE481990
3D54A8CA
BDB2E49F
BD1D7037
3E4D909D
BD6376FE
BEAADB20
BE721D87
3DE7116D
BED9A5AC
BD49CD3C
BE41162A
3DC6B5FD
BE790D17
BCD0F008
3F43A824
3E53A7CC
BDF12053
3E4E8B53
BD9B1A5F
3E7B3244
BEF02DF0
3EB35899
BD3C025F
3F4EADAA
BE844738
3EB1259F
3E179673
BEB37192
3F2332EE
3E84891F
3E787C72
BE03F2AB
3F014C86
BECE116D
3D3ECACC
BE3657C4
BF597AA9
BDCAF375
3EB85A10
3EBD141E
3CA4CEA1
BE50D8CE
BCFA807E
3EA685E0
3F1206F0
3E6DF459
3F029F04
3EC6966F
BD7BA50B
3EF49A52
BE16710E
3F202857
3E4BBA4D
3F4D092D
BEA977DB
BDB38C40
BF0DBD82
3E9CDD89
BF353AFD
BFD37F14
3E3086D0
BEF48E1C
BF437D72
3F961ADD
BFB1155C
BFE99C12
3FD50396
3F173474
BFF94E14
3EE9CD1A
3F0457BA
BE8E9555
BFB5E432
3FBFEC03
3F29E37C
3F3AF645
3DC78108
3E614BEC
BEA51387
3E922474
3F4AE647
BEDB31D6
3F843DCB
BFF56CF4
3FE3B170
BFB75B25
BEAAF3AF
3F1074BE
BFB11E52
3E78850E
3DA8D59A
3F724E37
BF5B2632
3F5850B7
BEC5E910
BCCAC90D
3DD8A57A
3F632C21
3F715759
3FC73825
3FFB0B8D
3D1B0F74
BF00D411
BF96D287
3D0A2B34
BDDDE4DF
BF64AC4B
3E0E9C17
BF570A3F
3ED278B2
BE9E53C6
3CB3A4F4
3FE88C38
BFA668AD
BF1C536B
BEBD0009
BFBDD5D9
BEC343D6
BF66C5C0
BF1507B7
3E12C58E
3DF5367D
3EE867A5
BF31A890
BF402AF4
3F454A4B
BDC40578
3EF86FA9
3E85FC4D
3DFF9E47
3EA83568
3F597C2F
BE497974
BF9662C5
BF60151C
3CFC63B5
3EE035AF
BE8E96AE
BEF3C48D
3F4FF43B
BF154D5A
BE8FEF7E
BD6BF535
BF1AC805
3E43AB15
3EF1E132
3E4994EE
3D9FF77A
BE1A4106
3F291B63
BBB9484E
BF0A74D3
3F3A73FE
3F0AFEBE
BE0E9807
BE879301
BECE7510
3E8966D6
BF136CAC
3D7553AF
3D1DD54E
3E9575AB
3E2F43AF
3ED69CD8
BEC244E6
BEF5C7FB
3EAFD4EF
BF5E89B8
3D9D1F29
3F00F945
BEC28011
3EA1BC27
BDA95D5E
BF44DD7C
BE4FB6C5
3E8A63D3
3E93A750
3E5F1971
BD1A466E
3EE416BB
3EB73B3D
3E537A19
3E117695
BEAD4056
BE896FD4
3E50E092
BE952BA5
3EB31A9E
BEDD4814
3EAA420F
BEF4DF46
BDE8CCC4
3DC3F325
3E36BF6B
3DCEE48F
3E2EAD7C
BEA94BBC
3E9E5376
3CDD6165
BF63038C
BF076250
3E7A5C3D
3E227223
3E9E98A1
BEA7B5BF
BEDAC671
BD4CA387
BE354266
BDD4328D
3E26E0DC
3EB5AAFA
3DE4154D
3EAC0B4F
BEBD90AA
BC442D7E
BEFB0C3A
BEADAA8C
3EAF0B15
BDA6A29F
3DF4311A
BE486CEC
3E8083E2
3DD5ED31
3CCBC887
BE824527
3F00893B
3D707AFA
3EB991DA
BEBEE63D
3E579129
BDE0B05B
BE956277
BEE22FCB
3EAB728C
3E27A775
3F0BB903
BD98FC24
BEDE80AB
BF11CCFD
BD98149E
BCF3C577
3D8650A1
3EA9216C
BF09342B
3F0D8C88
BE087602
3EC8A21A
BF048A19
BE29737E
3D8BBCB9
3F05FE4E
3EC4B074
BF06BB7B
BEBF574F
BE7B4FEA
3CBA1D37
BD94D278
3EF3FD43
BDE6C61E
3F027E00
BDEBBAD2
BEC7DC0C
BC154660
BEA71796
3C7C7A66
3DD7D54C
3E175EBE
3E9A729A
BE267635
BEA1D8FA
BF2BC239
3E10EA9D
3D64A164
3E72535E
3F781715
BBDB5907
3EA18375
3E6ED893
BECCCDC9
3EEFB11C
3D68AF26
3D261694
3EC0E067
BD9E459A
BE1D15C3
BE099BB2
BF40DD3C
BC3295CB
3E8FA8F3
BDBA8B01
BE994B5F
3F0022D6
3E986F51
BF4384E3
3D7E431A
3E2FB128
3ECB4B71
3EBD5161
3DCB9680
BE35A07D
BEFB9D14
BBA821B8
BEC02B2F
3E04C250
BDF08CE4
3CA83DDD
3F0D2390
BE0D40BF
3C452271
3EE171DF
BF2B7948
3F1654F7
BD33603C
3ED78EE7
3EE2DE3F
3E0E8261
BC8D504A
3EA15218
3D9ABB63
3EC7F8F5
3DC68687
BE56B9B4
BDA7D087
3F4B1CE3
3D4827E1
BE3D333D
3EB85326
3EE8CECB
3E667380
3D17CF5E
BEAF2B49
3E94D930
BE148F5A
BE22930B
BEE4DE6B
BEAA3A71
BD718B4C
3E415CCD
3F239CA4
3CAEEF12
BF178651
3F63D220
BF31B211
3DCF25C0
BE9BF519
3EE14886
3EFF0668
3ED76C06
BE9BF6B0
BE723587
BF1D0C16
BF32DDBC
3E251E16
BE986EEB
BD89814F
3F0941AB
BD99A7BF
BDEB2FFF
3E572071
3E3E3F5F
3E8D526E
BEEB9C43
BEB3D516
BEA6E442
BF4BCEA3
BF2448DF
3CE30394
BE890201
3ED3B9C7
BE1C1B1E
3F5985A7
BD3766AB
3DE18EF4
3F23D52D
BED537F7
3D06DB47
BEC8BFA9
BEC883BA
3F49EEB2
BF4EABFB
BEA7C857
BE078F05
BFFB97A8
3F88980D
BF9BF2C7
BE954B3B
BF057B74
3F4DA0D6
C00A93E9
3F5DB36E
BC797665
BF0BE7F7
3D8D1F25
3ED56081
3E3D4A84
3F28BC90
3FBE19E8
BF5F259C
BF450F58
3F731E45
3FA5E9A3
3F15590D
BE421722
BFDB8353
3F544ABA
3E1C49C0
BEA9D73B
BEB69025
BFE1BA92
3F471DC2
3F77CE95
402A5FD3
3EC5802F
3F2BDA78
BFFEF798
3F27A9DE
BF64C8C1
401BC374
3FA380E2
BE3F6226
3FB306A0
BF4F39B7
3D85A9F5
3F3CB688
3890E93E
BFA94C43
BEFB9E28
BFC15A68
BF7B536D
BF436961
BF049587
3F7CBBA3
3FCB7427
C00385CA
BF8BF85C
3FB5202A
C028D893
3F3513BC
BF5BB67C
3EFCBBB5
BEC93A9A
3F04711C
3EBFB12E
BF99A564
3F8F6218
BD3616B0
3DEEFF45
BE0C377C
BE27E418
3F00008E
3F9A21BC
3DD4B2F6
BE8273BE
BF39D5AB
3E8FB636
BF574C2E
3DC68F40
3EB93476
BF565D0E
3EA9EF99
3E96C431
BF207DAA
BE0A3F36
BE9B15EA
3F210387
BEB08070
3D215FBF
3E9D3D6A
3E5937D2
3EC17C1B
BF0CC4E2
3E653A38
BF46AF74
3F15BCEB
BE51BB69
BF8AD221
3F135BC9
BDD31B9D
3BD582B4
BE86FD11
3ED45125
3E62E195
3EA609AB
BD0750B4
BD793352
BED900B0
3EAACB49
3E56B6B4
3D29A8D5
BDB07E30
BE799C43
3E8877C5
BDE44692
3E5DD6F5
BE5C81FF
3E966AD8
3F7D2FEF
3EA53996
BDA19D13
BE22EA1F
BE234BC3
3E9287BF
BE9D45AE
3D685E93
BE26FEDB
3E7D65E9
BEA69A26
BE0E607B
BC29C754
3DD90164
BE41D343
BECC956F
3DA67B9D
3E269F7A
3ED266C8
3EBED4B8
BE1E5466
BF751FE0
3CE1C5C2
BE33F186
3E12B93F
BE327B59
BCAD3B18
3F0BC894
BE548855
3DAD8517
3C16DF97
3C44A29E
3F5923BB
3E8BEA17
BE216666
BC70DC53
3DDF4512
3E339553
3C95034B
BEBD297A
BD832807
3EDEBA30
BD141F32
3D5AD3E3
BD8DB72B
BE52CDEA
3E3E7961
BCECDB18
BCFDD77D
3DD407A7
3D92E8B9
BD42031D
3E7A6DA4
BF9E8658
BC46CE27
BE8C4B4F
3DDCBE95
3ECDCAD1
BEB014DB
3F0A2A96
BE55178E
3E16D8CC
BD700709
3E2F45E8
3EA164EF
3EE258DB
BD18E1B4
BE5B0E33
3E799E6C
3E92C9F5
BD471E2F
3EC5199A
BD11DBB5
3E07DE21
3EEAA5C5
3F05FCC0
BD1B1B25
3E8276DA
3F09335F
BD5CA027
3E2427B6
3DEDB712
BC92047E
3EAF0241
3EB10F45
BF984C1E
3E11B053
BEDC32EB
3E3B888F
3ED84679
BE3E5C1D
3F02CC84
3EAD823C
3C885E14
BF06B29D
BDECF7FD
3D380E79
3ED4093E
3BFF4F76
BE2B5EB4
3DCB616E
3EFEC3FE
BE5593BB
3F2771B9
3E1ED0F7
3D8A1EEE
3DFDF8AA
3F2F27A0
BEE45E2C
3EB6DC4F
BE8E9C5E
BEDFCEDE
BE0059C3
BE92C6EC
BEB54C37
3F05F5B7
3E1C4F05
BF67A069
BD80E229
BF33E25D
BEAD1A48
3EBC2B7F
BEE31E78
3EF6BD28
3F3EE4FC
BF08B3BB
BEF676F9
3E91B609
3EB18902
3C8CE816
3ECBBC41
BDE23347
BDDA2B92
3E881B95
BDB42EFC
3E0E0FCA
3E1C8E13
BEFFD769
3D9BBC2C
3ECFA64C
BF34FB96
BECD9EBF
BDA90DDE
BF02E5DD
BEA665B2
BE9C9290
BD16EAE6
3ECF256E
3EAA10AD
BF8C64A8
3DA8C2E4
BD9E7370
3E8591DC
3EDEAACB
3DC49156
BECB5A1A
3F30F087
BD8B98E3
BE8DD4A7
3E477341
BE4944B4
3E1C74A9
3F8A06E3
BE8F495B
BCD969DB
3EE1BEFA
3E1C66B7
BE598E2D
BDD519EF
BF6B18F1
BF39F63B
BF3B00DB
BFB43015
3E085210
BD0B42A0
BE172891
BF101D74
C007D1C8
BE48C46C
3F110CC8
BD9424CB
BFAF52D1
3D748973
BE421CA2
3E4D3F40
3FC2E2A1
BF06A42D
BD9BEF70
3F8C82E2
BE996A63
BFC05C61
BFF98A6F
3EE10355
BF5CBF0A
3FA05C14
BFA0A1CB
3DEA1C84
BE0EDF9A
BF0261FF
3EFAF3C1
3F513060
BF07372A
3F1653B0
BF32B842
C01834BB
3D9B823F
BFD0458E
3D2494B7
BFDD364E
BEC80F77
BF8ADF0B
3ED841B3
C015F6DA
3F1CDE66
BF3C44CB
3F9AEF16
BFD6C373
3F2107DB
BF16D12A
3CC8373B
3FD4D629
BE6F3C7E
BE54E3D4
BFA7E89C
3FF1CEDC
3D14BACA
3D8EA2EC
BF88F034
BEC1B74D
BF9442CB
BD9ABB59
3FD4095F
BF008367
3B2050B1
3E849FE2
3F88D5D5
3F1489BD
3F4F0DB8
BED1ED2F
BDA7C09F
BF806DE3
3FDDE2F8
3FD8EA45
BFF469DC
3F5F8A1E
C02C94AA
BF267CF6
402286FF
3FAA1929
C051F28A
BEE94AAE
BFC8FC8E
BF267EA2
3F44B766
BE8C1642
3EAB12F9
3F5C2003
BE94A75C
BF87221A
4007784B
C00A68A0
3FB9509F
BF8502C1
3F8916EA
3FA2AA33
BFB28BB7
BFB36DBB
3E47EF56
BF3DDC56
BF943FAB
BDA099F0
BF14CE99
3F81BE2F
3E07DFE6
3F9FD38F
3F850EB8
3F6F5F72
C026388D
BEB5BE6B
BEDD5215
3F928768
BFEAC585
BFAC55E2
BFBFAE5A
BF83208F
3EFCED27
BF97E72C
3F3F9559
BF4BC93F
3F14C0F7
3F753FBE
BF74DD86
C03C0715
3F17A405
3F91AFFB
3EAEB874
401FA9DB
BFAB1B3B
3EA51024
3FB3D3A9
BE9786AB
BF1AF482
BE98EB25
3F2994D6
3E770C75
3E767FC8
3F19F4F5
BFA2B9F2
3F379B4E
BF8551BE
3EAD9A95
3ECA0E3B
BE96C724
BEE0DCD2
BF1000CD
BEDA670D
BF1070DF
BDEA8FAB
BF975C7F
3FBBA707
3E8E838A
BE68D0CB
3EBFE115
BE2911F8
BF6D4088
3F904C25
BEF3E450
3C41901A
3F23A797
BF299923
3E89B325
3F85BDC4
3EB4281C
3D7A4776
3E4583B4
3F193F22
3EA7DF79
3EFC9FE2
BF265C4C
BF4DA0E8
BDF9E03E
BF98306F
BEF764D7
3F1CD5F5
3D8C93BB
BF6F188C
C000DD80
BF7D9EC4
BC89EEA4
3E78FE46
BEEAA662
3ECCEC00
3F015BB7
BF1D65E4
BEA434E1
3FD2C528
3F4A263A
3FBF10DA
BF4D31A6
3F4D0881
3E4E61A8
BC9D7F9D
3D15ACFA
3F6B4126
3E856AE8
BED2580C
3C7E816A
3E53F701
BE976ABD
3F108007
BEACB052
BE39B828
3E4670D8
BD22040C
BF3344AD
3F24A42B
BDA94961
BF55A58A
BF7126C0
BF05A4C6
3D543774
BE9633B5
BE8ECCDF
BF736CEB
BDA95EF4
BF339588
3E962B51
3F139BB9
3EECE693
3F554958
BEE82578
3E2223D4
BB9BFBC4
BF8DFC2D
3E920393
3F14C159
3DC150C4
3D23FCE5
BE159AFB
3E24B229
3F3D2021
BF3EE00A
BE9376DF
BF1FC36F
BF3D4723
3F410D0C
BDC98725
3EC036D3
BDA344C0
BEF4FC14
BF7DB958
3EAC08AC
3EA88F3D
3E0D0D91
3CA5992B
BE5C7094
3FA6B7FA
BEE7008C
3E0A1107
3F23930F
3D809818
3EAF23F4
BF4E66DD
3CE37E3D
BEAD740E
C017C0A5
BE42BC96
3F569DBB
BEBAE383
3E7BB9A6
BEFFAA67
BF3AAE9E
BEC7600E
BFA5A2C5
3E54117E
BF91EAF3
3E1ED45C
BE3B5E13
BE9A4521
BE9ED35B
BD8347A5
BE22784C
BDA085C2
BE1B3145
BF4D6E50
BE327E97
BF3DA9F4
BC2083C4
3FA7A9E9
BEFD0307
3F1BBA43
3F5E8EF2
3D1B9779
BDACCF6F
BEA9AA28
3F1E9E00
3B6E33DE
BFDF48CA
3F112BF3
3EF615E7
BED06092
BF282D1F
3D73D406
C0269834
3F95BA43
BF13DE71
BEBC7C2B
BF916E03
BE5F8759
3F4805C8
BEDF806A
3F346B0B
BF0180B6
BEA72D23
BF88F166
3ED76F43
3E69706B
BF4157CA
C00D5444
3FB29C5A
3FA077E2
BF041B74
3D92BEF8
3F733464
3EF5B9B4
3EFBEC7F
BFBF464F
3F91D847
BE0EAF7C
BFF929A2
3FB78465
3F9AA968
3F275868
BEFE6CBB
3F05AC3E
C056E56B
BFDDE566
BF25808D
BF81EC0A
BFBB67EB
BF5314BE
BFACF70B
BF82A900
3F516DBC
3CB56CEB
BEFF2FC6
BF154EE7
3EBDD700
3FAF2A0F
BF3C915A
BF0B7B0E
BF27B68C
3F2783DD
BFAA67F6
BF5397DE
BF7E758D
C00C2228
BEFEB626
3FA47E18
3E4F7692
3F007CA0
3F75ED21
BFBF6855
BFC97CBB
C0328BFA
3F9C0A30
BF8AE93D
3D7A37E3
3F87CEFE
BFA0C6E9
40052989
3F87BC13
BF0EA27D
BF8E471A
3C05286E
4013A51B
BF7CDA8A
BE1A9AE6
BFC24D87
BF4BFB06
3F9917A2
3FBDC95D
3F680544
3DFE6F28
3EFF250C
3E8BF573
3FE78A99
BE872380
3BF4A43A
C0007B87
3F5211CF
401D012E
3FFB749E
3F830AF5

